<s>
<pad>
</s>
<unk>
,
.
the
and
in
und
to
die
of
a
that
i
der
sie
it
das
ich
&quot;
es
you
ist
is
we
wir
zu
&apos;s
so
was
this
?
ein
--
von
an
eine
dass
:
nicht
den
they
on
mit
for
er
are
wie
auf
have
what
but
man
with
can
sich
all
sind
aber
für
haben
wenn
als
&apos;t
as
at
be
about
there
um
also
war
diese
do
one
not
-@@
im
my
&apos;re
ver@@
people
dem
if
he
like
or
from
einen
er@@
an@@
des
uns
now
these
be@@
just
können
me
oder
werden
our
hier
re@@
s@@
aus
ge@@
because
when
hat
very
un@@
über
out
how
s
by
einer
–
auch
te
up
know
einem
them
kann
going
dann
sehr
us
which
here
more
see
wird
k@@
had
nur
think
ing
t@@
ed
gibt
who
your
menschen
ten
really
ihnen
will
get
their
en@@
sehen
then
were
mich
e@@
would
a@@
in@@
ab@@
sein
&apos;ve
d@@
world
g@@
time
dieser
some
etwas
&apos;m
aus@@
t
ein@@
nach
noch
way
has
habe
don
actually
b@@
en
o@@
am
into
go
mir
ti@@
where
;
vor
things
i@@
bei
e
years
alle
mehr
welt
-
p@@
c@@
other
no
ch@@
well
could
want
ihre
leben
machen
y
li@@
de@@
meine
da
h@@
zum
make
di@@
m@@
weil
sch@@
r@@
right
been
said
new
ma@@
dies
g
m
nun
z@@
wurde
wirklich
gen
she
u@@
art
dieses
f@@
something
kind
st@@
auf@@
al@@
than
se@@
durch
al
ung
first
two
le@@
those
immer
ar@@
his
look
zu@@
tun
unsere
thing
zeit
ri@@
little
vor@@
jetzt
ihr
got
end
&apos;
wissen
de
y@@
much
o
l@@
um@@
life
hatte
back
work
say
d
ent@@
ter
her
leute
most
n@@
viel
over
keine
viele
ge
über@@
diesem
se
problem
only
ted
ro@@
sagen
eines
du
even
denn
ts
take
sagte
mal
dinge
able
system
many
diesen
zwei
einfach
waren
el@@
did
or@@
need
bin
alles
jahren
po@@
wo
good
co@@
müssen
lot
andere
le
around
let
why
down
ungen
come
gehen
on@@
use
v@@
anderen
mein
geht
w@@
bi@@
&apos;ll
würde
damit
k
bis
different
every
ie
through
zur
vielleicht
si@@
selbst
!
day
pro@@
sten
lo@@
gut
ert
at@@
p
ra@@
same
th@@
as@@
am@@
being
put
its
her@@
land
st
jahre
la@@
l
ds
kommen
doing
ers
ger
ni@@
ische
ende
ta@@
es@@
mi@@
con@@
eren
heute
ischen
geben
me@@
men
three
te@@
muss
ja
bo@@
warum
geschichte
called
schon
talk
any
10
dis@@
einige
j@@
macht
ck@@
ber@@
made
lassen
percent
&apos;d
ke
n
b
person
möchte
ly
wieder
ch
ne@@
tatsächlich
h
ad@@
he@@
today
ated
great
after
sp@@
gt
is@@
mo@@
big
liche
denken
par@@
ation
kinder
tion
davon
ha@@
tell
dort
ck
it@@
human
year
ganz
c
ve
vi@@
unter@@
ging
op@@
genau
ex@@
hatten
last
ter@@
mar@@
seine
drei
fact
another
ger@@
find
ken
sa@@
ins
own
form
ob
darüber
chen
pe@@
idea
könnte
lichen
ihn
lich
paar
ent
ei@@
change
didn
ate
give
fe@@
before
gi@@
jahr
sh@@
der@@
den@@
ur@@
ac@@
do@@
nehmen
wollen
went
should
to@@
20
teil
r
started
werde
weise
ern
thought
ste
design
ko@@
tions
ting
tag
pi@@
show
au@@
story
off
meiner
sti@@
ten@@
ihren
com@@
f
finden
hin@@
3@@
weg
wurden
sen@@
ding
never
better
start
stellen
course
again
während
important
still
pa@@
denen
kommt
ru@@
ste@@
fi@@
frage
moment
bu@@
jeder
gab
per@@
sen
im@@
ce
su@@
zwischen
him
tet
tra@@
does
part
denke
gemacht
water
pre@@
might
next
dazu
gen@@
ago
beispiel
each
together
place
technology
wäre
used
brain
vom
sondern
ok
unserer
ho@@
sogar
came
neue
okay
bit
no@@
tes
thank
ä@@
...
sk@@
bringen
mon@@
glaube
doch
computer
da@@
ungs@@
kein
unter
ar
x
ale
unser
so@@
50
nen
man@@
ir@@
long
for@@
qu@@
mu@@
natürlich
na@@
mit@@
ks
est
zeigen
em
kon@@
arbeit
el
fa@@
car@@
arbeiten
ihrer
too
ohne
weiter
.@@
einmal
between
fall
million
tr@@
point
hand
school
z
few
em@@
weiß
gerade
looking
sieht
ating
hi@@
oh
nie
fen
wa@@
war@@
nichts
children
dafür
mean
durch@@
würden
30
information
ben
try
ö@@
sort
ere
du@@
maybe
done
ty
ine
prozent
passiert
zurück
ever
erste
gra@@
verstehen
sta@@
found
ges
less
data
ded
ous
erte
whole
love
question
inter@@
vielen
schen
doesn
live
cht
red
br@@
w
daran
kt
zi@@
fragen
light
je@@
sprechen
sc@@
bar
sagt
ersten
gu@@
example
millionen
real
may
understand
ses
wanted
bild
four
gel@@
idee
isch
konnte
we@@
wei@@
ct
dollar
ganze
große
working
old
using
age
women
letzten
min@@
son
dabei
wer
ic
trying
fast
etwa
ens
city
elle
call
bekommen
us@@
könnten
welche
times
mis@@
ze
ben@@
nach@@
wi@@
away
power
internet
wasser
4@@
kids
et@@
money
seite
ange@@
ction
tive
sollte
ant
everything
kam
100
always
ot@@
tri@@
ally
believe
space
ons
frauen
il@@
feel
geld
all@@
five
hand@@
sollten
ziemlich
2
ak@@
bar@@
daten
enden
meisten
ary
wollte
sache
lei@@
ves
country
meinen
kan@@
king
hal@@
help
men@@
ph@@
ser@@
tionen
meinem
lin@@
thinking
ans
essen
jemand
d-@@
number
comes
create
wichtig
food
ps
pri@@
ka@@
ker
u
zen
dar@@
kleinen
ms
gesehen
ü@@
dr@@
gesch@@
took
second
stand
technologie
tion@@
cken
halten
mann
ol@@
ft
ges@@
str@@
darauf
energy
5@@
video
vier
science
tu@@
brauchen
om@@
lernen
sense
ellen
th
means
eigentlich
ul@@
x@@
weniger
zusammen
making
fo@@
ment
wor@@
chte
zusammen@@
china
ff@@
future
besser
getting
mer@@
raum
ster@@
become
side
quite
ster
15
enough
tung
best
bri@@
dra@@
building
großen
small
pl@@
ganzen
says
probably
hei@@
menge
bei@@
bedeutet
los
hen
det
dachte
&#91;
&#93;
ability
che
home
social
tro@@
ag@@
eln
half
play
without
licher
ihm
tt@@
earth
glauben
tz@@
zeigt
gr@@
kleine
rei@@
unseren
left
3
cor@@
body
e-@@
stuff
interesting
ihrem
kl@@
talking
che@@
har@@
punkt
chten
ways
dollars
gehirn
room
tic
lebens@@
set
ties
schauen
africa
versuchen
coming
ble
re
star@@
happened
alen
danke
jedes
line
gegen
ort
spielen
seen
ab
grund
ci@@
frau
allen
6@@
ja@@
ll@@
build
nein
führen
trans@@
ies
york
7@@
ju@@
simple
global
jeden
ask
bes@@
anything
ausge@@
cted
ance
indem
licht
erung
flo@@
goes
while
seit
and@@
8
planet
project
beim
teilen
bauen
days
stra@@
makes
nutzen
pretty
ca@@
erde
lives
move
per
tan@@
ali@@
problems
zukunft
cher
gesagt
ne
case
health
such
go@@
told
tre@@
across
high
5
ell
ors
schaffen
film
gl@@
ner
once
happen
ws
living
res@@
bad
car
jo@@
book
seiner
basically
wer@@
keinen
wahrscheinlich
eigenen
sub@@
1
ing@@
erten
fünf
4
hin
hätte
else
saw
the@@
gs
sts
gute
ones
stehen
imagine
yet
picture
später
test
job
1@@
8@@
ts@@
40
care
countries
zurück@@
fl@@
happens
cy
iert
ken@@
tig
sche
ung@@
having
ku@@
stellt
mind
business
family
neu@@
stadt
tor@@
arten
heraus
ings
jede
9@@
team
hard
rate
zer@@
cht@@
experience
ma
setzen
super@@
asked
des@@
ged
sure
19@@
later
6
lu@@
nature
probleme
ari@@
sah
young
s-@@
schule
sicher
name
hö@@
kom@@
lange
ideas
stri@@
energie
fu@@
tigen
anzu@@
learn
funktioniert
nu@@
pro
ungefähr
20@@
ke@@
ver
lang
ful
ton
wo@@
mor@@
inside
pen@@
et
pp@@
pres@@
hu@@
welt@@
cu@@
richtig
än@@
pu@@
wenig
everybody
7
y-@@
ga@@
history
konnten
mutter
six
kte
ler
process
liches
over@@
top
&amp;
helfen
rest
sur@@
state
child
erzählen
open
reason
states
systems
buch
ell@@
kor@@
saying
zwei@@
nothing
billion
cks
tieren
ure
both
lan@@
single
ely
under@@
sing
oft
recht
ches
heißt
neuen
kten
körper
within
genug
erst
whether
almost
liebe
schnell
bel@@
sage
looks
ba@@
far
dung
bring
cells
ity
material
mm@@
möglich
tern
ars
tete
ideen
level
tige
already
mil@@
music
nächsten
tation
weit
ry
els
hören
wrong
braucht
cancer
afrika
dan@@
remember
alt
gruppe
anders
keep
%
gets
wunder@@
unserem
ban@@
ber
bisschen
house
under
gern
guy
mal@@
true
einander
ß@@
begann
elt
les
sion
fol@@
possible
fan@@
ven@@
projekt
reden
0s
fr@@
order
bio@@
dank
hope
ieren
heard
leuten
ments
seinen
community
heit
ßen
darum
zed
beautiful
looked
überall
gro@@
bevor
euch
ates
bor@@
manchmal
often
sachen
schi@@
group
matter
yes
ap@@
face
out@@
teil@@
ters
fer@@
är@@
planeten
schul@@
ki@@
ents
entwickelt
piece
research
built
fe
mittel@@
public
geb@@
gehört
india
je
por@@
read
sei
ator
ness
lich@@
ling
months
can@@
mel@@
united
amazing
answer
fer
ner@@
works
bur@@
god
gh@@
natur
ob@@
bt
late
stories
wert
head
universe
9
milliarden
someone
cre@@
wieder@@
situation
taking
unternehmen
sagten
tional
ence
gend
myself
ved
zellen
col@@
ig@@
ase
places
seinem
liegt
va@@
besch@@
education
gener@@
kennen
words
instead
mädchen
dro@@
informationen
since
gel
sha@@
tze
wal@@
eins
nennen
until
anderes
tur@@
wissenschaft
mer
usa
species
yeah
dna
fahr@@
isn
ourselves
tat
control
off@@
government
ia
ie@@
sometimes
ving
fand
bau@@
front
ischer
revolution
12
land@@
night
generation
led
turn
199@@
ces
/
25
tische
0@@
decided
happy
gestellt
eg@@
somebody
—
erkennen
kr@@
und@@
besonders
nor@@
lage
mp@@
bilder
deshalb
bl@@
spiel
couple
middle
pf@@
steht
ene
heart
wel@@
language
machte
stop
verändern
lau@@
lichkeit
rather
turns
tä@@
versch@@
zeit@@
heraus@@
stück
teile
gleich
ou@@
geschichten
t-@@
enti@@
gar
exactly
gesellschaft
model
sprache
2@@
familie
führt
treffen
alten
fin@@
minuten
gefühl
namens
large
ev@@
kinds
sau@@
society
spiel@@
erreichen
tischen
wasn
wegen
ün@@
bereits
fil@@
klar
mü@@
run
word
everyone
though
company
oben
woman
benutzen
tions@@
vater
act
flu@@
hren
itself
auszu@@
ziehen
mother
sam@@
gan@@
hoch@@
completely
dich
indien
minutes
musste
themselves
ations
game
verschiedene
animals
hätten
lebens
news
id
möglichkeit
students
irgend@@
pan@@
sechs
tragen
antwort
cr@@
cra@@
musik
share
evolution
gang
vo@@
became
end@@
stre@@
v
80
cke
dy
enen
fla@@
hr@@
cal
sei@@
shows
viel@@
sel@@
char@@
ess
kal@@
must
experiment
darin
haus
innovation
kat@@
america
happening
pac@@
table
bas@@
american
environment
sal@@
60
learned
friends
sto@@
created
gene
hear
ics
meter
net
oil
study
air
gerne
ce@@
tiert
view
wasser@@
bil@@
huge
kopf
ton@@
weiter@@
einzige
gkeit
os
sound
hours
sho@@
win@@
third
tiere
tten
ele@@
frei@@
jedem
mittel
ven
auto@@
falls
gar@@
tru@@
natural
bra@@
century
ment@@
ys
augen
cur@@
einigen
oper@@
besten
ic@@
lar@@
lie@@
ach@@
nung
won
arm
stic
disease
schreiben
stor@@
entwickeln
länder
gte
guys
lation
sed
stat@@
stunden
tter@@
dessen
innerhalb
kol@@
onen
population
along
fre@@
ß
worked
bat@@
ckt
niemand
regi@@
don@@
irgendwie
self-@@
bewegen
fish
gleichen
market
sor@@
bringt
fra@@
gott
ran@@
wachsen
gleiche
questions
figure
center
ka
perhaps
pos@@
tisch
area
gebracht
particular
san@@
early
lässt
moving
turned
based
knew
soll
verhalten
ern@@
schließlich
kindern
national
psych@@
regierung
against
cher@@
gebäude
couldn
lots
others
aufge@@
machine
pas@@
obwohl
ocean
sted
verschiedenen
18@@
menschlichen
up@@
zing
clo@@
gave
tiven
during
hol@@
known
learning
wür@@
lt
past
verwenden
äu@@
ked
erhalten
schaft
vorstellen
wing
gegen@@
hor@@
möglichkeiten
ted@@
zei@@
takes
ur
gleich@@
hl@@
plan
rec@@
dern
lesen
position
200
cally
patienten
phone
vision
ändern
beiden
least
my@@
scale
cell
500
cri@@
nimmt
aren
bs
lose
cts
physi@@
kre@@
nämlich
free
gemein@@
outside
produ@@
ture
eltern
eth@@
schw@@
gten
kraft
lösung
syn@@
aller
aten
dri@@
finally
genommen
chter
father
hab@@
ther@@
wollten
culture
dir
ground
krebs
bre@@
tage
chance
cing
difference
media
online
ren@@
stellte
wonderful
del@@
key
len
needs
seven
ying
entire
männer
schwer
beginnen
close
taken
version
david
kamen
ori@@
unglaublich
mus
tt
ec@@
patient
ined
lösen
entwicklung
isches
wirtschaft
ess@@
formen
fähigkeit
hlt
kunst
tal@@
bitte
damals
hoch
na
pt
stelle
gre@@
image
rück@@
yo@@
auto
google
green
ant@@
herum
glück
gri@@
sinn
ders
fahren
hnen
thousands
versucht
kar@@
met
selbst@@
arti@@
drei@@
force
powerful
universum
fangen
fü@@
wir@@
wohl
daher
hause
hn@@
län@@
stage
west
flie@@
fort@@
legen
parts
voll@@
laufen
whatever
angst
kop@@
kultur
staaten
tter
getan
poli@@
yourself
changed
fühlen
seeing
ust
kin@@
kti@@
lehr@@
rie@@
stoff
dre@@
gung
hinter
nächste
schön
ssen
uni@@
zt
anti@@
behind
cost
grow
tend
überhaupt
beginning
far@@
ls
richtung
schü@@
sü@@
given
hilfe
ide@@
software
voll
bal@@
certain
leave
verändert
walk
blick
eyes
tut
indi@@
nis
normal
visu@@
ani@@
bewegung
pped
rech@@
wort
zwar
baren
spezi@@
tzen
krieg
nachdem
size
son@@
spend
fly
gene@@
zahlen
allem
audience
bom@@
cool
pal@@
span@@
wind
isi@@
parents
alter
amount
baby
bro@@
ini@@
junge
menschliche
modell
18
full
street
zahl
death
easy
groß
low
nahmen
terms
deren
ism
neuro@@
schla@@
ser
sive
wh@@
fac@@
letzte
0-@@
bon@@
dau@@
gest@@
grunde
interested
labor
pe
belie@@
cannot
dete
economic
hiv
kurz
ns
buy
eight
plan@@
cap@@
cho@@
einge@@
nan@@
pla@@
tors
books
kü@@
sterben
began
common
eher
spi@@
cy@@
ht
maschine
spr@@
dingen
week
ats
region
tiv
treten
unten
web
bare
kes
wahr@@
ard
black
difficult
field
mes
worden
felt
gone
local
lö@@
sum@@
wissenschaftler
air@@
erfahrung
ill@@
tte
.000
äl@@
cities
krei@@
tat@@
üb@@
deal
genden
nahm
vis@@
wider@@
enten
fis@@
sin@@
bin@@
fanden
findet
ang@@
eu@@
ship
unterschied
value
fest@@
betrachten
blue
hands
jungen
medi@@
ously
welches
code
friend
hold
ien
meines
eller
hy@@
kaufen
top@@
ums
ned
needed
paper
ris@@
fru@@
len@@
lung
muster
neu
south
squ@@
jedoch
kur@@
longer
simply
ther
tief@@
weitere
zen@@
eigene
en-@@
fliegen
führ@@
haus@@
mechan@@
vari@@
blu@@
cting
mag
pur@@
10@@
anfang
forschung
ker@@
realized
spent
either
humans
incredible
boden
fel@@
mati@@
ord@@
platz
wand@@
kosten
personal
dig
lieben
mission
schä@@
ziel
grund@@
step
thema
tried
wohl@@
fal@@
posi@@
0,000
asi@@
beste
bildung
gebaut
micro@@
scho@@
sex
0.000
born
cker
groß@@
körper@@
rau@@
dly
forward
growth
mt
schu@@
om
prozess
roboter
,@@
bes
chan@@
feet
lehrer
falsch
surface
verbindung
cer@@
inten@@
prin@@
quickly
sitting
solche
watch
erinnern
ice
atom@@
companies
mussten
stan@@
ality
autos
bank
clear
interessant
vortrag
white
bel
complex
genauso
girl
hinter@@
lost
bleiben
woche
direkt
equ@@
fragte
grün@@
markt
ße
bereich
fro@@
minute
structure
suchen
kri@@
pat@@
publikum
wohn@@
zer
jobs
tau@@
knowledge
mas@@
sollen
wen@@
wouldn
zweite
blo@@
enth@@
gei@@
growing
board
fri@@
hü@@
miles
namen
virus
weg@@
zes
pay
gefunden
u.s.
chen@@
fallen
nt
od@@
sieben
wahr
198@@
freunde
reality
selben
hlen
john
sea
sie@@
wol@@
zuvor
,000
box
einzu@@
sun
technologies
university
ame
eli@@
gedanken
il
neues
ologie
political
poor
sting
han@@
sil@@
danach
giving
religion
tin@@
eat
economy
monate
pra@@
sch
tages
tives
a-@@
animal
fas@@
fun
größte
guten
mine
positive
hast
oni@@
theorie
weeks
fest
nte
pr@@
ales
arch@@
behavior
cked
cking
ften
morning
opportunity
wusste
ziert
ppe
setzt
ta
yp@@
fle@@
glücklich
wären
cul@@
dat@@
erschaffen
hey
la
plötzlich
70
brought
changes
developed
ft@@
gers
mag@@
studi@@
zehn
11
besteht
fall@@
kli@@
ative
college
gegeben
patients
source
cal@@
scientists
telling
wrote
anyone
designer
digen
program
ah
anderer
schle@@
stoff@@
struktur
testen
90
ball
ey
fing
ha
ig
mikro@@
sy@@
technologien
cs
reise
starting
write
äch@@
cut
dlich
draußen
gas
museum
o-@@
zä@@
berei@@
colle@@
coun@@
gemeinschaft
ill
lam@@
sicht@@
theory
völlig
feeling
sters
tools
wall
gew@@
ihres
images
ländern
prote@@
technik
vers
vol@@
identi@@
jen@@
lab
nice
wes@@
wochen
areas
bot@@
gelernt
glück@@
offen@@
potential
sicht
climate
fli@@
mate
ning
sehe
stand@@
tical
bed
gives
größe
modern
rat@@
zuerst
ör@@
ched
fel
histor@@
luft
manche
ss@@
cam@@
cli@@
non-@@
reihe
sicherheit
ham@@
law
sig@@
understanding
yed
ama@@
ca
möchten
nei@@
radi@@
sorgen
teten
tho@@
wand
heiten
ss
uren
attention
beru@@
bewusst
discovered
hen@@
scheint
enz
est@@
head@@
strei@@
aussehen
beginnt
fied
impro@@
refle@@
short
ze@@
bereit
cars
herr@@
las@@
literally
mus@@
pping
speak
erklären
flug@@
leben@@
links
moral
pul@@
swe@@
ths
unseres
bist
ffe
funktionieren
investi@@
lang@@
morgen
zeug
cat@@
forms
general
miteinander
seems
zo@@
arbeitet
aufgabe
challenge
deep
egal
inv@@
numbers
playing
pun@@
systeme
gewal@@
gewesen
hervor@@
musi@@
produce
schritt
studenten
tun@@
amerika
bran@@
flü@@
map
ppen
proje@@
vel@@
anzahl
average
erzählt
fully
ical
mars
realize
she@@
sol@@
ese
main
16
access
bli@@
computer@@
diagno@@
ently
gs@@
program@@
anstatt
aufzu@@
daraus
girls
nachdenken
sing@@
sli@@
tatsache
brachte
changing
computers
denkt
died
dr.
ented
mache
acht
anfangen
cket
fun@@
geworden
nten
oren
prä@@
uses
absolutely
auth@@
bekannt
karte
north
passieren
stimmt
bottom
digital
ement
ley
mm
niemals
physical
gerät
gruppen
klein@@
movement
running
cop@@
demon@@
english
hel@@
jemals
lat@@
mat@@
plat@@
verwendet
ad
alone
developing
glob@@
hundreds
infe@@
materials
ology
shape
traum
deli@@
dru@@
firma
ige
individual
nacht
aff@@
spricht
steu@@
vent@@
bevölkerung
creating
gesicht
jahrhundert
millions
result
student
000
dem@@
genannt
hier@@
lin
log@@
nobody
vorstellung
chi@@
chris
development
innen
messen
analy@@
bücher
gende
mensch
preis
quality
folgen
interessan@@
schwierig
straße
tic@@
tö@@
eigen@@
gesundheit
kleines
liegen
ore
wäl@@
zeige
bekommt
elektr@@
gingen
london
medical
recently
town
wahl
compassion
solution
spo@@
zentr@@
afghanistan
beide
haupt@@
listen
mental
mot@@
product
300
billi@@
chinese
focus
gebiet
größten
kinder@@
ständig
wish
0ern
argu@@
bru@@
clu@@
designed
gän@@
holen
tor
ßt
connected
essen@@
gezeigt
krankheit
major
scht
showed
tier
wn
cent
east
ed@@
emp@@
kid
mathemati@@
relationship
sonst
blood
kel
tas@@
tel@@
ve@@
cro@@
industry
knows
soziale
sä@@
umgebung
anybody
foto
gefü@@
hon@@
politik
tiny
1,@@
aler
ctions
eit
fir@@
schulen
tal
tics
allein
ball@@
cin@@
dark
dom@@
haven
lea@@
oberfläche
obviously
person@@
save
seem
tab@@
wahrheit
benutzt
moved
talks
zeiten
dic@@
herz@@
ingly
kontrolle
park
schrieb
security
send
soon
stimme
support
class
dungen
ente
likely
talked
techni@@
tzt
öl@@
fehl@@
issue
pflanzen
stark
tex@@
verbunden
versuche
begin
incredibly
seiten
spiele
städte
ute
allow
ast
available
especially
für@@
happiness
human@@
jemanden
network
proz@@
richtige
schlecht
sicher@@
taten
type
ander@@
bilden
rolle
sonnen@@
writing
cles
kleiner
leicht
regeln
tier@@
wil@@
zieren
geschrieben
werte
aids
ared
becomes
multi@@
sozi@@
vie@@
xi@@
beyond
effect
entfernt
ff
hälfte
impact
ining
les@@
solve
tät
wä@@
betra@@
dete@@
games
laden
lived
meinung
present
stu@@
wat@@
action
bedeutung
hi
high-@@
lebt
mass
onto
perfect
satz
schaut
training
app@@
ass
continu@@
cou@@
ession
explain
liter@@
mitte
office
smo@@
ähn@@
dead
gele@@
hil@@
hour
ingen
pil@@
veränderung
worth
bigger
einfache
gegenüber
operation
please
resources
statt
appe@@
chtet
essi@@
gesprochen
guess
machten
tausende
zelle
active
blin@@
depen@@
fähigkeiten
genen
hält
ismus
mein@@
richard
schwier@@
verste@@
dig@@
gal@@
gue
hoffe
international
reasons
scientific
weisen
biolog@@
drive
ei
erreicht
europe
gesam@@
industri@@
mögen
not@@
ras@@
strong
sus@@
device
fear
groups
ren
schei@@
sonne
tel
western
zeich@@
ans@@
finde
geboren
lines
thi@@
basis
freund
kle@@
putting
tells
zimmer
14
lab@@
mä@@
sm@@
solar
verb@@
197@@
boy
finger
gekommen
interessiert
leu@@
mehr@@
programm
website
algorith@@
ank@@
dou@@
eless
rein@@
rules
schools
schwer@@
color
glo@@
med
meet
nis@@
spro@@
studie
sun@@
teach
abzu@@
bewegt
erfolg
nation
ot
special
stellung
beziehung
hop@@
plant
schließen
teilt
vereinigten
voice
wann
bill
ced
komplett
verloren
absolut
ansehen
bab@@
bekam
ble@@
hun@@
roll@@
schie@@
sions
vier@@
ye@@
heutzutage
ise
liber@@
pictures
similar
ak
ang
befinden
einzelne
extra@@
fehler
gesetzt
kam@@
lä@@
road
several
towards
tungen
village
wär@@
geri@@
ignor@@
zw@@
öl
aller@@
door
dynam@@
ebene
gesundheits@@
involved
issues
klu@@
projects
speed
tan
teachers
activity
dachten
eye
ktion
liert
mäch@@
offensichtlich
pfen
sionen
break
gesamte
ina
lieren
list
mes@@
mö@@
new@@
particularly
pli@@
risk
sent
stam@@
tod
$
asking
back@@
bald
econom@@
eng@@
herausforderung
indeed
kil@@
komme
leg@@
male
sofort
suddenly
voller
ach
geschieht
gol@@
herauszufinden
hle
port@@
robot
arb@@
basic
cla@@
dest
krankheiten
nennt
nisse
ober@@
on-@@
rus@@
stellten
trotzdem
bet@@
deten
foot@@
langen
mic
mitgefühl
normalerweise
schnitt
star
wachstum
ähnlich
cle@@
esti@@
glichen
kla@@
lon@@
nine
sahen
sounds
symme@@
wieso
carbon
dy@@
evidence
gearbeitet
hit
linie
ped
resi@@
schau@@
ures
wichtige
certainly
hoffnung
hundred
kannst
musli@@
ny
page
truth
form@@
fä@@
message
respe@@
smart
teri@@
überrasch@@
demo@@
er-@@
fig@@
sl@@
tagen
13
ching
formed
hau@@
mc@@
mieren
nutz@@
object
spe@@
sprach
starts
virtu@@
choice
europa
hung
möglichen
recor@@
sand
schein@@
stay
stimmen
wait
anyway
ators
ergebnis
explo@@
fine
grenzen
halte
igen
mei@@
mini@@
stische
trau@@
exi@@
gewinnen
grand@@
künstler
month
passen
ray
wants
ward
beri@@
bewusstsein
cations
desig@@
exc@@
führte
hospital
pol@@
sell
walking
brea@@
dec@@
everywhere
gas@@
halt
matic
ordnung
ots
our@@
peace
q@@
row
temp@@
cen@@
energi@@
entscheidungen
kunst@@
sitzen
unge@@
verl@@
24
eben
edi@@
ehr@@
examples
fire
iran
kö@@
plants
ra
ral
wesen
ath@@
ature
cha@@
fassen
japan
journ@@
ligh@@
läuft
mark
mul@@
anschauen
dd@@
hän@@
reach
tlich
umwelt@@
zero
15@@
besu@@
fälle
gleichzeitig
interest
ket@@
pain@@
rela@@
showing
tin
down@@
exciting
further
herum@@
hört
loo@@
medicine
partner
pattern
ready
skin
spa@@
store
techn@@
vergessen
weltweit
wie@@
zentrum
alte
ases
folge
hielt
hä@@
kapit@@
notice
ration
total
tou@@
al-@@
bedeu@@
bestimmten
fte
funktion@@
länger
monaten
professor
self
sozialen
tigt
wichtiger
zeichnet
democracy
größer
ines
journey
klas@@
milli@@
orte
plasti@@
san
sieren
ably
add
beobachten
develop
gedacht
inn@@
lagen
nachhal@@
nuclear
ow@@
realität
rise
service
totally
treiben
ants
bedro@@
begannen
biggest
effizi@@
einzelnen
extraordinary
follow
foot
measure
rede
shu@@
sit
stern
übrigens
daten@@
frequ@@
grew
klei@@
named
orten
sobald
sou@@
spei@@
x-@@
ast@@
ear@@
großer
gutes
imm@@
ony
period
produkt
punkte
val@@
feld
gewöhn@@
greifen
ließ
los@@
merk@@
ming
netz@@
repor@@
richtigen
schl@@
sky
stell@@
teacher
196@@
400
among
aufmerksamkeit
besit@@
ences
ended
enor@@
firmen
fische
lead
mod@@
wards
abge@@
ationen
deine
druck
erd@@
ferti@@
gemeinsam
non@@
pick
schneller
sper@@
stoffe
wan@@
ank
band
cru@@
denk@@
gaben
hab
organization
passierte
poverty
schn@@
sh
st-@@
staat@@
trä@@
verlieren
zier@@
überleben
ages
außer
bessere
buildings
comp@@
ctive
dance
eventually
großes
hl
ik
lle
ops
änder@@
ären
bul@@
definition
fron@@
medien
nation@@
quad@@
redu@@
spaß
wert@@
bleibt
cultural
fisch
halb
kultur@@
ll
points
posed
produzieren
standing
tzung
visual
volle
vorher
acc@@
arab@@
beispiele
camera
cause
except
extremely
inst@@
langsam
largest
obser@@
pit@@
stän@@
wander@@
alized
approach
arbeits@@
ingenie@@
sammeln
stars
success
videos
bele@@
demokratie
essentially
medizin
nachzudenken
rich
strom
tem
umwelt
usually
watching
aspe@@
außerdem
berg
creative
drücken
klein
perfe@@
peri@@
products
schaften
sprachen
zumindest
aging
arbeitete
berech@@
continue
ian
industrie
interessante
lied
nen@@
nete
objects
qui@@
rich@@
shot
song
text
versuchte
wussten
zeichnen
amerikanischen
bö@@
cies
eig@@
einfluss
ierte
island
lli@@
older
power@@
reich
stei@@
sym@@
tically
winzi@@
bestimmt
chines@@
cover
geschehen
instru@@
j
massive
results
schlagen
series
spread
sten@@
to-@@
trees
verstanden
wow
17
arbei@@
chtung
cl@@
electricity
entdecken
ish
nachrichten
one-@@
schrei@@
trag@@
us-@@
verbessern
wed
cian
electr@@
gewalt
hom@@
individu@@
innova@@
mensch@@
models
ologen
paul
safe
screen
sichti@@
sowohl
spezies
stisch
washington
win
wün@@
zweiten
bus@@
co2
dad
facebook
haut
intervie@@
kab@@
klasse
kno@@
main@@
phy@@
roman@@
schöne
serious
somewhere
studien
brains
dadurch
fei@@
fällt
hing
hit@@
prei@@
tly
diejenigen
ffen
gegangen
ght
kn@@
krie@@
liste
llt
minds
mom
nar@@
square
touch
vertrauen
vorher@@
wu@@
zogen
bühne
impossible
mathematik
movie
poin@@
shi@@
studies
tiger
tree
za@@
zugang
1.@@
conver@@
doctor
erinn@@
expect
fein@@
flow
kä@@
leaders
methode
prinzip
somehow
tik
amerikaner
attra@@
audi@@
babies
brauch
ckte
clin@@
erzeugen
faces
grad
organisation
tam@@
vation
äumen
crazy
din@@
esen
führung
geist
personen
quar@@
rel@@
slo@@
toll
tv
verlassen
0er
african
ands
expensive
higher
larger
lern@@
menschheit
scher
thousand
wife
charles
dige
erlaubt
frei
gesi@@
jun@@
killed
meaning
nam@@
private
reich@@
rop@@
sar@@
thre@@
tool
zunehmen
zü@@
dent
dorf
dur@@
nenne
omen
rechte
richten
schli@@
shown
site
sorts
stä@@
trust
unt
zeichen
allowed
architecture
domin@@
farbe
gewis@@
gründe
kra@@
organisi@@
pers
pieces
schlag
spielt
stet
verständnis
werk
above
blind
bun@@
erwar@@
finding
gewicht
handelt
hole
hörte
kämpfen
nachricht
reading
spar@@
thes@@
vergangenheit
45
biology
conditions
früher
ful@@
gos
herstellen
iger
including
köni@@
schicken
station
tom@@
written
beauty
engineering
fundamental
hundert
israel
konzept
neben@@
provi@@
reali@@
sexu@@
swi@@
therefore
upon
versuch
wirklichkeit
zustand
ack@@
aussieht
content
crisis
dreht
genes
hinaus
k-@@
kern
oli@@
ordin@@
sekunden
stieg
tom
traditional
warten
artikel
connect
dream
elte
ered
excited
income
papier
production
red@@
satelli@@
schüler
stration
tar@@
tele@@
tively
trieben
universität
web@@
west@@
200@@
brau@@
brei@@
erle@@
frieden
großartige
individuals
irgendwo
künst@@
pflan@@
press
schreck@@
theater
transpar@@
typ
worte
abstra@@
bacteria
cep@@
chti@@
erhö@@
exp@@
f-@@
geschwindigkeit
globalen
goal
has@@
hot
hrt
illu@@
suche
supposed
taught
wissenschaft@@
wör@@
»
arzt
cent@@
complicated
dor@@
endlich
familien
fotos
freedom
frü@@
ically
lies
organ@@
perspective
schaff@@
schen@@
shor@@
tigkeit
truly
öff@@
12@@
bus
central
communities
drug
drugs
dun@@
families
kul@@
ney
produkte
tere
treatment
zin@@
dn@@
entweder
famous
freiheit
handeln
ods
optimi@@
terri@@
violence
werfen
wissen@@
bodies
combin@@
england
faster
favorite
got@@
healthy
materialien
monat
rat
rou@@
seconds
sinne
struc@@
stör@@
tungs@@
verbinden
«
behandlung
behaup@@
einzel@@
fantastic
folgt
geh@@
geni@@
hypo@@
kranken@@
neben
oc@@
steigen
transpor@@
wählen
armut
chirur@@
ends
fight
gor@@
haft
humanity
kill
kontin@@
kt@@
le-@@
ly@@
natur@@
party
politi@@
role
tent
unmöglich
zahl@@
öffnen
2000
alive
antworten
bing
grö@@
lands
math
mess@@
neurons
niedri@@
stem
typ@@
ursprün@@
welcher
well-@@
zz@@
chern
christ@@
di
größ@@
gründen
hilft
himself
ils
kohlen@@
maschinen
mme
ners
obje@@
ogra@@
qualität
sam
werk@@
35
aufgrund
bildet
details
geschäft
hea@@
interesse
kel@@
kommen@@
lauf@@
lern
minister
mur@@
original
repli@@
reser@@
response
zieht
ade
conven@@
date
entdeckt
gefähr@@
krea@@
lief
logi@@
lü@@
meer
netz
nummer
osten
path@@
repres@@
ries
riesige
sohn
tens
verwen@@
worse
apo@@
balance
bit@@
cases
compu@@
dge
erzähl@@
faszinier@@
fund@@
fy
heli@@
meant
ozean
radio
range
schwe@@
successful
throughout
zation
although
betrachtet
dasselbe
einstein
ergebnisse
exper@@
fern@@
genome
glich
ima@@
masse
myster@@
re-@@
rechts
skills
tain
van@@
150
17@@
aid
bunch
chts@@
ebenso
ehe@@
forsch@@
gewinn@@
glass
inclu@@
machines
meeting
pain
phones
price
reg@@
see@@
stunde
trägt
drehen
dritte
einfachen
fair
frem@@
fur@@
gh
hyper@@
insi@@
ium
keln
leisten
läu@@
mani@@
michael
objekt
physics
ran
rele@@
spek@@
acy
ash
außergewöhn@@
bis@@
dam@@
dischen
dist@@
entschieden
ermöglicht
heben
kept
lege
mach@@
neun
part@@
passt
respon@@
umzu@@
visi@@
was@@
alität
bestimmte
bieten
earlier
enter
fore@@
gotten
kompli@@
mau@@
military
philosop@@
policy
publi@@
rights
skelet@@
stes
three-@@
wonder
actual
after@@
antwor@@
arbeite
beings
clearly
erklärt
früh@@
high@@
himmel
kamera
strange
tivity
verletz@@
vic@@
video@@
concept
context
cycle
era
fasst
grade
haf@@
hydro@@
legt
patterns
progress
raum@@
recognize
rä@@
samen
signal
smaller
ty@@
uss
americans
armen
diver@@
druck@@
eigent@@
energie@@
ereig@@
gü@@
herz
ier@@
mals
nahrung
näher
reichen
samm@@
schafft
slow
solchen
unded
vely
wur@@
zeigte
argument
choose
consi@@
effe@@
endes
entscheiden
familiar
hne
kollegen
lie
print
spon@@
trag
unde
uns@@
waste
wirk@@
architektur
bla@@
bung
gefragt
gelegenheit
gesamten
medizin@@
meeres@@
president
projekte
que
record
spieler
stischen
thanks
traf
verstand
weile
connection
consider
costs
depres@@
extra
fluss
gesetz
greater
grei@@
interak@@
invented
listening
matisch
plastic
sensor@@
stein
treat
values
waiting
ack
allows
anywhere
befindet
beginn
beziehungen
chem@@
chung
cir@@
dness
eis
etc
fällen
geschäfts@@
james
loss
lösungen
magic
malaria
raten
ressourcen
seh@@
sinn@@
solutions
standard
trin@@
will@@
zeuge
außerhalb
contribu@@
flüs@@
green@@
kaum
kilometer
km
kunden
licht@@
menschen@@
nä@@
ph
weight
ät
conser@@
divi@@
draw
erin
freund@@
islam@@
kampf
kauf@@
maß@@
pen
raus
rob@@
stü@@
tests
untersuchen
wü@@
600
bakterien
clean
dan
driving
fs
graph@@
herzustellen
hum@@
ited
komplex@@
landes
leistung
photograph@@
stro@@
trifft
wirkung
99
bau
decisions
emotional
ender
erzählte
film@@
forest
george
invol@@
naja
nur@@
performance
provide
related
robots
surgery
weren
wers
wood
zunächst
cated
critical
dangerous
del
depression
dog
effective
freu@@
gras@@
hände
intelligence
jahr@@
llen
phil@@
ror
sches
schönheit
seines
sel
sich@@
straßen
sustainable
thomas
train
tumor
veran@@
worten
au
auff@@
boo@@
ember
flying
geln
gerä@@
heim@@
hr
ky
mier@@
ory
september
sharing
tren@@
zell@@
zy@@
2008
artist
aware
bezug
boys
conference
dein
ements
explor@@
feed
fertig
fuel
however
leider
letz@@
none
pass
politics
protect
remarkable
schwan@@
teaching
trade
travel
two-@@
wagen
walked
wirtschafts@@
ambi@@
anda
auswirkungen
belo@@
biologie
bürger@@
diversity
ets
forming
getroffen
hinzu@@
informa@@
legs
schlechte
stick
stände
ttern
verkaufen
whose
ai@@
anymore
arts
auen
bild@@
conc@@
conversation
current
direction
ep@@
ero@@
exist
foundation
fähig
gehirn@@
geschaffen
geschlossen
hör@@
inge
lag
mobile
motor
nap@@
nicht-@@
prof@@
religi@@
rule
scan@@
sum
äre
becoming
ca.
clim@@
eigenschaften
einzigen
fläche
freude
gic
heit@@
herausfinden
mile
sat@@
sele@@
siert
spitze
stream
syste@@
wege
aktu@@
bisher
bits
ek
entation
gehirns
hat@@
irs
kämp@@
leidenschaft
organisationen
scientist
scre@@
slide
stone
tz
uhr
unglaubliche
whe@@
bahn
brechen
docum@@
erfahren
erstens
extrem
ial
letztes
nigeria
prototyp@@
som@@
understood
voraus@@
abend
block
deswegen
dlichen
flugzeug
frank@@
genetic
ghts
großartig
ing-@@
jan@@
lations
moral@@
passion
practice
protein
schwar@@
sex@@
sla@@
suff@@
tech
werkzeuge
wichtigste
brü@@
cians
ells
erneu@@
experiments
finanzi@@
floor
geräte
glaub@@
hed
hoff@@
immediately
ktor
lernte
lower
mr.
pull
ring
robo@@
specific
steckt
studio
subject
thetic
track
yer
zeitpunkt
ads
af@@
auge
chs@@
dün@@
ehrlich
environmental
frie@@
function
greatest
held
hunderte
in-@@
increase
konferenz
krankenhaus
leiden
profi@@
reach@@
rund
services
zie@@
bedingungen
chemical
encoura@@
enormous
fühlt
heu@@
keiner
kraft@@
markets
occu@@
offi@@
pel
reaktion
retten
sand@@
schutz
scri@@
stau@@
ür@@
ann
bac@@
chtes
co
cold
decade
emotion@@
erinnere
ever@@
führer
ham
networks
police
poten@@
produced
sac@@
schil@@
schluss
shared
sorry
speaking
tradition
typen
ue
va
währ@@
ately
benutz@@
blas@@
capit@@
conclu@@
jer@@
mitten
photograph
schönen
sequence
spreche
sung
vac@@
vielfalt
vollen
westen
195@@
atlan@@
aufgaben
commit@@
creativity
disappe@@
erwarten
festi@@
fuhr
krise
raise
regel@@
some@@
säu@@
thro@@
univer@@
urban
z.b.
assu@@
bewe@@
chair
following
forth
ge-@@
gent@@
inspiri@@
kun@@
lasst
luft@@
mehrere
netzwerk
rock
statt@@
stattdessen
status
stun@@
unterschiedliche
alism
bat
cas@@
complete
enter@@
erfü@@
fern
fit
forces
forget
jün@@
keits@@
lights
matically
mp
nel
nes
ong
philosoph@@
recogni@@
sodass
tac@@
television
temperature
unden
unterschiede
veränderungen
vorzu@@
adop@@
agree
beschrei@@
comm@@
darwin
ebenfalls
erfolgreich
fanta@@
gefä@@
glei@@
mente
n-@@
organis@@
rechten
schützen
stär@@
survive
various
wikipedia
wirken
angefangen
bly
essed
ganzes
gesellschaften
globale
grundle@@
hes
inspired
klima@@
moder@@
mr@@
mögliche
nahe
nasa
near
nehme
played
profit
sische
strukturen
tes@@
unfortunately
useful
weite
amp
birds
geführt
kün@@
levels
lieb@@
maßen
medikamente
regierungen
sse
summer
surro@@
unique
van
verrückt
zustellen
ahead
ahnung
alisi@@
bewer@@
bäume
chter@@
classi@@
conflict
digung
discover
doctors
elektro@@
ep
erfunden
evolved
final
financial
fundament@@
jahrzehn@@
kostet
path
prü@@
restaurant
ruf
rufen
solar@@
sprech@@
verbindungen
verein@@
veröffent@@
weib@@
öffentlichen
5,000
ana
bemerkens@@
bringing
event
experim@@
fen@@
geru@@
jahrhunderts
loved
moon
physik
possibly
pris@@
recent
rever@@
sat
trieb
union
0
actions
bren@@
brenn@@
deu@@
element
elles
finan@@
gehe
gste
helped
hinder@@
höch@@
jene
karten
konzentrieren
leid
miert
männ@@
negative
pfer@@
plus
produktion
rü@@
sle@@
soli@@
teams
zeu@@
öffnet
alternative
amer@@
band@@
büro
chs
consciousness
fes@@
funny
genom@@
indian
jemandem
pair
phase
pher@@
schritte
schätzen
sis
societies
steve
tate
types
verantwortung
demokra@@
directly
effects
gere@@
geschafft
guter
harvard
institutions
jac@@
john@@
mostly
search
shel@@
tiv@@
trei@@
ular
unterstützen
wichtigsten
75
agi@@
apple
behandeln
destro@@
dien@@
einzigarti@@
erwä@@
fabri@@
fragt
fres@@
gender
herzen
heutigen
hinein
hängt
institute
instrument
konsu@@
mix@@
note
ol
ozean@@
schlä@@
tausend
tran@@
detail
dische
entlich
extreme
farben
ple
sign
verk@@
vin@@
wohin
öko@@
alization
ards
california
eigenes
englisch
evol@@
exten@@
fran@@
francisco
graph
heat
industrial
kosten@@
laptop
lebte
nahme
obvious
robert
ruhi@@
sion@@
stecken
terror@@
tief
tür
ärzte
anz
below
budget
career
carto@@
echte
erleben
erungen
gie
größeren
hero@@
hir@@
holt
institu@@
intui@@
nieder@@
nü@@
op
regel
schlu@@
sleep
stance
uring
verwand@@
workers
afrikan@@
alismus
ams
ater
ba
beu@@
bitten
capital
digt
elli@@
gefühle
glas@@
hig@@
modelle
ological
onic
phi@@
privi@@
senden
ted-@@
waffen
year-old
zweitens
boot
by@@
challenges
daughter
erzeugt
focused
frieden@@
intelligent
kern@@
ler@@
terrible
trick
twitter
vot@@
wenden
wenige
wild
work@@
zur@@
2007
ancient
anima@@
appar@@
biological
bought
circu@@
echt
entfern@@
entscheiden@@
entwicklungs@@
ette
fortun@@
fuß@@
geschah
gewä@@
governments
häuser
ii
mand@@
mond
sischen
term
tsch@@
verbringen
winter
agre@@
ased
birth
brot
capacity
entscheidung
explore
gebe
größere
inspiration
jam@@
laws
ließen
mili@@
oten
pic@@
ping
popular
rock@@
schte
stir@@
task
valley
wechsel@@
wee@@
ah@@
ameras
artists
brauchte
dar
decide
decision
dep@@
eating
emer@@
entschied
erfahrungen
erlauben
farm
fenster
freunden
fängt
fühlte
magne@@
materi@@
rieben
seien
sigkeit
spec@@
unterneh@@
val
wid@@
willing
wunsch
zieh@@
ände
agen@@
alisierung
alter@@
blut@@
einkommen
expected
folgendes
frühen
inger
modi@@
paid
träge
twice
wahl@@
attac@@
barkeit
c.
causes
character
chr@@
communication
designers
enga@@
existiert
fügen
gliche
habt
hunder@@
immer@@
ink
instance
islam
kei@@
konzentri@@
loch
meters
neuronen
ologists
proto@@
race
rain
turning
unbe@@
zwan@@
10,000
achten
beeinflusst
begonnen
bir@@
complexity
dest@@
dimensional
erstaunlich
flu
fort
genutzt
gold
greif@@
gst
gsten
hot@@
imag@@
infrastructure
kommunikation
mark@@
pa
prob@@
purpose
push
shed
shir@@
sphere
stock
verfügung
vorbei
weiss
yers
ami
anti-@@
augen@@
berühm@@
blau@@
break@@
carry
chin@@
closer
cros@@
dying
efficient
enting
erstaun@@
erstes
förder@@
link
nungen
plac@@
predic@@
pressure
reak@@
selts@@
spending
staat
straight
struk@@
tag@@
trial
ware
worry
00@@
accu@@
alle@@
blä@@
cell@@
ef@@
gran@@
ität
küste
lauf
mountain
nissen
prakti@@
produziert
promis@@
quote
rema@@
runter
sa
schwi@@
secret
sicherlich
slightly
sucht
tritt
wirtschaft@@
acade@@
amerikanische
bers
charge
daß
decades
devices
diseases
drop
flexi@@
gate
höhe
instal@@
losen
low-@@
molecules
ours
prize
regu@@
river
sche@@
subje@@
surprising
üs@@
16@@
address
astero@@
bildungs@@
cortex
einhalb
ency
gem
glaubt
gui@@
ine@@
ji@@
leg
modernen
nächstes
passi@@
pon@@
puzz@@
recht@@
sal
spre@@
stal@@
u.@@
universi@@
vering
wörter
youtube
adap@@
begeg@@
brilliant
broken
cate
citizens
desto
dorthin
ernst
feu@@
funk@@
gelöst
gewebe
hart
hte
innen@@
investieren
komplexität
kreativität
lets
nord@@
orien
politischen
que@@
stücke
tolle
zeug@@
zug
zusammenhang
acting
bert
besor@@
brie@@
check
connec@@
descri@@
drin@@
ecke
erinnert
garten
infrastruktur
inse@@
integri@@
manipu@@
memory
quick
schafts@@
schwester
sekunde
tochter
ökonom@@
1,000
2010
answers
archi@@
aro@@
atmosphere
baut
beteili@@
coffee
degrees
dence
ech@@
educ@@
fernsehen
fuß
law@@
magazine
nat@@
ority
persön@@
politische
published
ries@@
schrift
significant
stie@@
tis@@
trouble
ungspro@@
verfolgen
wirst
zone
calls
cham@@
chri@@
eding
entdeck@@
familien@@
freien
fäl@@
fühl@@
fühle
hnt
impf@@
impli@@
linken
memor@@
nähe
orche@@
pakistan
phili@@
predi@@
schien
schutz@@
somit
tremendous
unsicht@@
wach@@
weiterhin
wuchs
zehn@@
zierte
zog
achie@@
ansatz
apart
ausbildung
ausdruck
botschaft
corpo@@
deutlich
einfach@@
ening
feuer
gam@@
hur@@
justice
medium
miss@@
pati@@
reisen
rooms
supply
tail
teren
wen
affen
baum
boston
bridge
conne@@
const@@
crimin@@
dea@@
designs
däch@@
effekt
esses
feedback
gehalten
hearing
jon@@
kontrollieren
nütz@@
oxygen
passed
ples
profession@@
stag
stron@@
worst
assem@@
bruch
budd@@
counter@@
creates
ear
edge
ermöglichen
gebäu@@
interven@@
leads
pin@@
rational
smar@@
speci@@
stuhl
suppor@@
wissenschaftliche
zerstör@@
ables
bares
bildern
brown
collabor@@
communicate
differences
dire@@
electric
engli@@
fying
gelegt
gestal@@
gradu@@
improve
irgendwann
kreu@@
materie
mming
nations
notion
ologi@@
prot@@
relevant
riesigen
sely
sites
structures
technologi@@
tissue
töten
ungsk@@
verrück@@
verur@@
verursacht
weiten
werkzeug
ück@@
allerdings
aut
benötigen
besonder@@
bestehen
dok@@
erungs@@
flies
funktion
gewonnen
haufen
inno@@
männern
noticed
offen
organi@@
quelle
repe@@
responsibility
risiko
stances
stolz
tiver
toll@@
tory
travel@@
treib@@
trie@@
trotz
universums
wald
wärts
2005
accep@@
aktivität
arme
asia
begriff
bird
dennoch
durchschnitt@@
erwartet
fix
fleisch
gemeinde
gend@@
gesetze
hotel
kriegen
laun@@
linien
natürliche
phenomenon
portra@@
problemen
tei@@
tle
tür@@
vege@@
verkauft
wächst
ate@@
bot
cious
de-@@
dent@@
einfacher
epide@@
farmers
grenze
haiti
hall
imagination
insu@@
kenne
massen@@
nerven@@
organisms
pus@@
reagieren
roten
rt
seemed
setzung
stige
toler@@
wiederum
&apos;@@
benötigt
british
colleagues
dagegen
direc@@
easily
entstehen
filme
fotogra@@
helping
hoffentlich
inner
kreis
limit@@
marketing
meas@@
paradig@@
pose
schaft@@
sterne
tivität
vorberei@@
vorstell@@
willi@@
anten@@
astronom@@
aufgenommen
aufnahme
bay
corner
dimension@@
dopp@@
drü@@
entwickelten
erforschen
feels
ford
gestalten
ingt
invest@@
ists
letztendlich
management
opti@@
p-@@
planets
plo@@
possibility
programs
religious
selber
sozusagen
stands
studying
thy
tially
verbesser@@
14@@
achieve
blog
centi@@
condition
consu@@
cyber@@
deser@@
eis@@
fellow
flight
giant
ins@@
interpre@@
klang
las
motion
mov@@
möglicherweise
nearly
necessarily
objekte
oth
ought
particles
rad
republi@@
rhyth@@
shift
städten
äuß@@
.com
addi@@
ade@@
architec@@
behalten
beschäftigt
bo
brand
communic@@
core
davor
defin@@
deut@@
ele
erfin@@
gebiete
kehren
open-@@
organizations
painting
partner@@
post@@
pounds
quali@@
religiö@@
scot@@
standen
tradi@@
twi@@
wahrscheinlichkeit
wide
window
accoun@@
acht@@
atur
boat
dauert
defen@@
entlang
figured
gur@@
hair
klimawandel
landscape
met@@
mol@@
onie
plu@@
process@@
pump@@
regen@@
return
saß
shop
versorgung
wom@@
yl@@
yle
alien
beine
besser@@
bia
blog@@
bone
bush
bürger
chicago
choices
civil
ckten
discovery
einsatz
ela
engine
forscher
ir
iraq
jahres
jährigen
klingt
knowing
nahrungs@@
rab@@
rand@@
reduce
sparen
streets
symbo@@
throw
wind@@
zurückzu@@
21
ar-@@
atmosphäre
beschle@@
dom
finished
fortschritt
gelangen
highly
hunger
laut
legal
lucky
mach
moments
neighb@@
net@@
obama
perspektive
report
schwei@@
stad@@
verdienen
vergleich
xes
yn@@
aktivi@@
allo@@
attemp@@
coast
coo@@
dents
dieselbe
einzi@@
erstellen
fau@@
finanz@@
fotografi@@
gedanke
gestern
gress
gressi@@
hn
iled
lok@@
lun@@
necessary
nutri@@
opportunities
plä@@
pollen
produk@@
relationships
resol@@
selb@@
soldaten
statisti@@
stopped
süd@@
thir@@
todes@@
via
zuhause
2-@@
aufre@@
benefit
consum@@
dop@@
fication
fiel
forever
g-@@
gelassen
golf
herausgefunden
intelligenz
interact
kräfte
moleküle
organic
paris
port
prison
puts
rain@@
schlag@@
steuern
tee
train@@
versus
vollständig
whi@@
worüber
yellow
ändert
anth@@
arian
bie@@
brief
card
despite
differently
eline
erleb@@
ernsthaf@@
exponenti@@
fossi@@
geno@@
gewi@@
großbritannien
hai
hell
hirn@@
iges
intensi@@
jährige
lautet
missing
schalten
scheinen
setzte
sommer
stress
teen@@
temperatur
ury
verdi@@
ya
ücken
alisieren
bewegungen
bled
brings
buchstäblich
chaos
custom@@
defini@@
engage
erfol@@
ering
experten
foreign
iel
inti@@
ior
kontrolli@@
kür@@
lying
members
noise
obs@@
organismen
origin@@
respect
rot
rö@@
stin
ti
transformation
ultimately
vollkommen
zukünf@@
zun@@
00
ager
ala
arms
attack
bread
cial
cker@@
cool@@
darf
effort
extre@@
fach@@
gli@@
heili@@
ily
instin@@
interface
kombin@@
komm@@
kommunizieren
kurzem
lungen
methoden
moves
oll@@
passionate
rus
russi@@
scen@@
sitzt
spor@@
steh@@
steigt
strategi@@
teilchen
themen
ultra@@
untersu@@
verschie@@
wesentlichen
zusammenarbeit
behandelt
berü@@
betr@@
cloud
colum@@
comfortable
durchgeführt
gical
gilt
gon@@
join
jungs
kauft
leading
mathematics
monit@@
phänomen
reve@@
räume
schlie@@
stru@@
surge@@
symptom@@
tauchen
teste
visit
weiteren
zon
äf@@
2.@@
2009
absolute
agriculture
ania
assi@@
benefits
besseren
bezahlen
cide
covered
dh
elements
emotions
entwerfen
fairly
fiziert
ght-@@
hielten
ili@@
karriere
landschaft
lesson
lic@@
meistens
präsident
resul@@
sculp@@
sogenan@@
sozial@@
tial
tures
unterstützung
virg@@
-year-old
antly
anwen@@
base
beeinflussen
calcul@@
electro@@
engineers
ens@@
fashion
fields
fix@@
ght@@
heads
helps
hinein@@
konfli@@
kontakt
lichsten
meilen
meister
ologist
tations
theore@@
tis
unbedingt
urs
virtual
wahre
wisdom
wunderbare
zus@@
19
20.
bees
besitzen
bility
cation
contra@@
emplo@@
entwickelte
erkrank@@
expla@@
figu@@
fragten
french
gefängnis
gras
happ@@
hohen
introdu@@
kommuni@@
kümmern
landwirtschaft
load
nah
orienti@@
peter
polio
sahar@@
saving
setz@@
spä@@
starb
stufe
suffering
titude
trauri@@
u-@@
ution
vermutlich
veröffentlicht
walls
afford
afraid
apply
appreci@@
asien
begren@@
bling
cle
conscious
degree
derzeit
diplo@@
engineer
expec@@
extin@@
fighting
fold
fähi@@
gy@@
hard@@
hauptsächlich
klin@@
krebs@@
lim@@
matters
mischen
mom@@
motor@@
mouse
ome
ple@@
reicht
rief
shares
ski@@
slowly
spring
stens
supp@@
typical
vat@@
vermu@@
welchen
wonder@@
ziele
zufällig
zung
ök@@
3d
adults
alisiert
arbeiter
ath
billions
charak@@
concent@@
creatures
crime
dritten
events
experimente
expres@@
female
filled
gelan@@
geschen@@
geschi@@
geschä@@
gift
gun
hergestellt
isra@@
kontro@@
ktionen
laufe
milliarde
mothers
nochmal
og@@
olymp@@
organ
photo
reas@@
rein
responsible
schwarze
sir
sity
titel
traffic
viren
wandel
adam
arm@@
brother
chromo@@
entsteht
gezogen
großteil
investment
irgendetwas
ish@@
jung@@
kehr@@
konstru@@
norden
perfekt
pharma@@
priv@@
raised
recei@@
s.
schicht
suit
tie@@
tierte
tim
tricks
uganda
yn
2,@@
aktiv
alize
are@@
atz
außen@@
begins
bekannten
beschreiben
broad@@
bü@@
calcu@@
capable
cheap
chip
color@@
compar@@
competition
constru@@
dient
fascinating
fung
gab@@
gegensei@@
gelesen
gentle@@
geschle@@
graben
habit@@
hohe
home@@
iphone
ison
lady
lot@@
mengen
mexico
nel@@
phen
roll
separ@@
simul@@
umgehen
vergleichen
ves@@
vö@@
warm
weiteres
zierten
zuhören
überzeugen
überzeugt
ace
activ@@
and-@@
autis@@
betrifft
caught
distance
dry
easier
elten
experiences
fill
gation
hopefully
identity
influence
ki
lass
leb@@
mitg@@
neugi@@
noten
ried
sector
sick
simpli@@
statistics
stig
stür@@
sy
thri@@
vast
woher
älter
behand@@
colors
cont@@
contro@@
diam@@
dio@@
duc@@
embra@@
endet
erenden
facili@@
gewissen
gif@@
gren@@
hell@@
holding
hou@@
impres@@
institution
leaving
morgens
motivation
nega@@
neuer
ota
poly@@
profound
pyrami@@
respond
rup@@
schö@@
stopp@@
ständen
texas
täglich
unterschiedlichen
vern@@
wissenschaftlichen
wr@@
zig
2,000
ai
astro@@
basiert
bett
brachten
circle
compe@@
dritt@@
elemente
erende
erster
galaxy
gehei@@
herunter@@
kenn@@
kid@@
korea
kurze
lernt
lieber
lou@@
meat
mouth
mär@@
promise
präsentiert
quanti@@
quie@@
rahmen
rid
separate
spirit
th-@@
trend
unabhängi@@
uner@@
verbracht
verhindern
vertei@@
werten
wirtschaftlichen
wit@@
wohner
zeugen
übertragen
25@@
anderem
begeistert
breast
church
concep@@
dahin
dank@@
desert
dieren
drittel
economics
enjoy
erkannte
fif@@
fischen
flächen
fordert
gefahr
grand
ites
kee@@
könnt
mates
nee
ome@@
pingu@@
post
powered
spli@@
stein@@
stoßen
stö@@
teu@@
toi@@
tradition@@
tting
tue
tured
vement
weder
werke
zin
22
absor@@
aci@@
allge@@
anten
arbeiteten
atem@@
aufnahmen
außer@@
buch@@
campaign
count
describe
determin@@
dreams
einsetzen
falsche
gerü@@
gespielt
handel
hinweg
importantly
insekten
ite
juli@@
jum@@
lig
mail
measu@@
mütter
names
neten
nom@@
normale
offer
otherwise
paint
pig@@
plane
proble@@
progra@@
ritual
schwimmen
sequen@@
shouldn
sold
sowie
speech
spiegel
steller
studied
symbol
technolog@@
theit
trained
wunderbar
yo
2004
27
art@@
belief
bi
bildschirm
brauchten
brust@@
cele@@
derek
diabetes
dicht
dürfen
echten
errei@@
erzähle
gelei@@
gerung
gkeiten
hintergrund
häl@@
indu@@
insects
invest
invisible
kennt
klassen@@
krimin@@
mix
netzwerke
normally
occur@@
scha@@
shar@@
sichten
telescop@@
verbreitet
wachen
wear
aling
arc@@
beach
beat
catch
challen@@
consumption
email
entwickl@@
fund
führten
griff
häu@@
independent
institutionen
int
intelligen@@
lic
malen
mel
mitteln
ologe
patent
principles
sister
spac@@
spir@@
starke
sterb@@
sudden
therapy
ungskraft
universal
verlangen
warming
wave
95
airplane
akt
bee@@
behör@@
blei@@
büro@@
camp
damage
dungs@@
everyday
factory
fördern
gens
geogra@@
graphi@@
großarti@@
inci@@
ishing
kolle@@
ktiv
kön@@
lachen
lebten
letzt
molecule
placed
praktisch
schri@@
seriously
sor
speak@@
stenz
steps
stimu@@
strö@@
tem@@
tus
volu@@
zauber@@
bauern
bereiche
bf
civilization
compli@@
creation
dene
dichte
disco@@
dolph@@
eingesetzt
elegan@@
entirely
erweiter@@
fit@@
forschungs@@
gabe
gewisse
hund
infin@@
inn
isch@@
itäten
kompon@@
lack
languages
operating
opposite
professional
schlei@@
sky@@
tiefe
tons
transform
wurz@@
zeitalter
analysis
angel@@
appli@@
bles
blut
ception
cers
cken@@
controll@@
dienst@@
dp
emotion
fingen
frank
func@@
gehabt
geladen
geld@@
glas
hmen
husband
jud@@
keeping
kers
ld
limited
master
nannte
option
richtet
rücken
small@@
spot
stuck
une
ungewöhn@@
vermögen
worl@@
yesterday
acceler@@
alleine
argue
article
atta@@
background
bestimmen
cis@@
commercial
concerned
deliver
desire
distribu@@
drän@@
dynamic
emergen@@
ene@@
erfolgrei@@
fell
ference
geburt
geheim@@
herr
integra@@
interessieren
invi@@
kni@@
kogni@@
ktiven
kürzlich
match
menten
photos
player
poster
principle
raus@@
recycl@@
reli@@
samer
schaute
spit@@
tain@@
verwandeln
viruses
zubringen
1.
10.000
2006
65
advantage
automo@@
autor@@
behinder@@
believed
blick@@
clou@@
deeply
designing
einander@@
esse
fett@@
fing@@
free@@
gehirne
getötet
glücklicherweise
hate
herausforderungen
horri@@
ierten
inen
janu@@
kalifornien
knochen
kurz@@
leistungen
managed
mid@@
ograph@@
olog@@
opened
opini@@
ough
partici@@
play@@
propor@@
qua@@
schlimm@@
sichtlich
sorge
standar@@
sweise
therapie
tot@@
toward
träume
tural
täten
verbreiten
versuchten
verzwei@@
viet@@
wahrnehmung
winkel
wirkt
ägyp@@
abhängig
angeles
anony@@
atten@@
aug@@
bekamen
bemerkt
bol@@
childhood
deckt
dinner
disku@@
dium
electrical
equal
erklär@@
erstaunliche
evil
exhi@@
failed
followed
forma@@
fährt
gebro@@
gehören
gese@@
hang
händen
increasingly
ingu@@
irak
ko
letter
lichem
liebt
majority
mäß@@
nah@@
narra@@
nets
oceans
ok@@
opfer
ories
pages
pfei@@
platt@@
predict
spaces
sport
stit@@
stung
telefon
tnis
tomorrow
treibt
umge@@
verantwortlich
vir@@
wenig@@
whenever
wichti@@
zählen
ähnliche
aner
aufhören
babys
bauten
cer
chemi@@
dialo@@
dienen
doppelt
drin
driven
edu@@
eland
elektron@@
erkenntnis
fünf@@
generate
gere
gewand@@
ills
influ@@
insel
moderne
nes@@
opening
organized
sensi@@
spruch
streben
surprise
teilung
thinks
vertrau@@
voices
vögel
wahren
yor@@
öffentlichkeit
2003
23
according
adi@@
ald
berg@@
bloß
cen
chten@@
constantly
direct
due
entreprene@@
gates
genauer
impul@@
kontext
kung
kus@@
legi@@
maker
maus
nutzt
origami
oxford
participa@@
perfectly
post-@@
pus
rand
random
secon@@
soil
stian
stigen
sw
tent@@
tiges
tigung
trip
vice
vo
wealth
wearing
weißen
weißt
whom
ameisen
approach@@
atures
bedeuten
brow@@
care@@
cents
chap@@
cognitive
define
drawing
eindruck
erseits
ery
failure
fourth
gemü@@
geschickt
graduate
guar@@
handy
heal@@
heits@@
humor
inspiriert
jump
kins
klini@@
kurs
künstler@@
l-@@
meta@@
militär@@
mut
phan@@
practic@@
prevent
prop@@
rechts@@
robot@@
schmerz
seas@@
sign@@
signals
survival
tern@@
tischer
transition
trie
wachsen@@
zeichnungen
äne
überprü@@
überrascht
194@@
2001
ansicht
bag@@
beeindruck@@
bezahlt
compare
corruption
currently
dauern
dimensions
emis@@
equivalent
erer
europä@@
früh
gegenteil
ghana
gry
harder
interagieren
isol@@
journalist
kurzen
lieblings@@
martin
miss
motiv@@
navi@@
normalen
polizei
ppt
privat@@
secre@@
shif@@
signale
sim@@
stimm@@
stock@@
sty
unless
unternehmer
volunte@@
wisst
öffentliche
ön@@
250
alisten
athei@@
bienen
cans
classroom
diagra@@
erst@@
eure
explan@@
friend@@
gather@@
gefahren
goo@@
grün
körpers
leadership
lebewesen
library
läch@@
metaphor
normal@@
ordinary
probe
producing
roots
schaf@@
stabili@@
verhältnis
verschwinden
wa
wiesen
zten
affect
army
aufbauen
barer
bietet
blogs
cel@@
chil@@
cky
cular
deinen
digit@@
erklärung
ernährung
erscheinen
experts
fahrer
galaxies
gay
gesetz@@
gespräch
identität
illusion
iso@@
lear@@
leaves
markt@@
microsoft
mie
mindestens
photo@@
raft
schlüssel@@
starten
stran@@
syl@@
tanz
verbindet
verwal@@
wake
wegs
actor
admini@@
akzep@@
an-@@
brauche
caused
chts
d.
d.@@
distribution
drink
existieren
exists
ffe@@
fisch@@
gain
gesprä@@
gestorben
grundlegende
gäbe
haltung
harmon@@
horizon@@
häufig
individuen
invited
keys
konzep@@
kopf@@
ktive
lichkeiten
lunch
mee
meiste
musst
one@@
persönliche
rural
sauerstoff
seitdem
shall
sicherheits@@
sphäre
steel
stent
succe@@
terie
tough
tour
treated
verhaltens@@
verkauf@@
verschmu@@
vorteil
weird
werbung
worldwide
worried
32
activi@@
angenommen
anrei@@
appl@@
artificial
autonom@@
baum@@
compared
continent
debate
enz@@
erfinden
erhält
fizieren
garden
gegensatz
generationen
h-@@
hidden
hoffen
holes
höher
japan@@
kenya
multiple
nant
orig@@
paying
pes
pet
pfe
reduzieren
schlechten
schreib@@
seat
sever@@
shapes
spra@@
standards
stanford
suppose
sz@@
temper@@
tur
tzlich
ulti@@
unterscheiden
verschieden@@
wars
anthropo@@
augenblick
berührt
best@@
blü@@
businesses
canada
chem
chron@@
construction
debat@@
double
echn@@
einheit
eleph@@
european
fernseh@@
gand@@
gieren
han
hasn
igkeit
inneren
innovative
japanese
komplexe
krank
krank@@
kulturen
kus
lager
layer
leiten
negoti@@
oned
planning
real@@
refer@@
regen
rätsel
schlüssel
schnell@@
shoes
skep@@
strategie
threat
trends
trug
unding
vehicle
weapons
wein@@
wri@@
äd@@
-up
20th
abschluss
acts
anischen
appear
appro@@
arbeit@@
arkti@@
ay
bed@@
beg@@
beginn@@
benen
beob@@
beschäf@@
blau
blocks
brech@@
bright
chemicals
circum@@
contr@@
copy
cure
deta@@
develop@@
doku@@
drückt
einiger
embar@@
eric
establi@@
expression
fan
fire@@
gegenwär@@
geome@@
heisst
itä@@
joy
kari@@
klar@@
lebenden
manhattan
marine
mmen
mobili@@
muscle
musik@@
märkte
nachbar@@
neighborhood
nieman@@
näher@@
ols
relativ
represent
schni@@
sec@@
super
tenden@@
thesis
toren
täusch@@
unterschie@@
waves
wea@@
welle
wis@@
alex@@
annehmen
bear
bekann@@
bet
beweg@@
collect
collective
coura@@
described
dä@@
elling
emotionen
entschei@@
facts
faktor
forder@@
highest
hmt
incre@@
interview
jugend@@
melt
mentioned
mobil@@
mortality
nai@@
nationen
nden
nest
parti@@
phosp@@
popu@@
pre-@@
preser@@
proud
ration@@
riff
schneiden
sequenzen
sna@@
strate
strategy
syndro@@
systemen
than@@
transl@@
tumor@@
weather
wichtigen
wobei
zunehmen@@
züge
alist
alists
anwenden
architekten
bahn@@
bedarf
beglei@@
beschrän@@
besondere
brasili@@
britain
brothers
chemistry
chicken
cock@@
crow@@
dach
dinosaurs
dran
drüben
dul@@
entspricht
experiment@@
feelings
four@@
gefährlich
generations
grown
holz
honest
houses
internet@@
kap@@
kunft
mas
nett
notwen@@
pole
proce@@
quellen
schmerzen
sheit
sitz@@
soviel
spüren
sub-@@
tox@@
upp@@
vorfahren
vote
wechseln
wenigen
worfen
wunden
26
associ@@
associated
bein@@
bell
bruder
cape
characteri@@
clinical
clip
closed
discipl@@
dow
element@@
emerging
entdeckung
epi@@
ernä@@
fat
flug
fossil
frag@@
genau@@
gessen
howard
interaction
issen
kb
klär@@
konser@@
letters
microscop@@
mon
nde
olo@@
ox@@
percei@@
politiker
rechen@@
regionen
stammt
stoffen
thers
tie
transi@@
ug@@
unterricht
verfügbar
violent
40@@
angeb@@
angeneh@@
aufgebaut
bank@@
bedürf@@
bemer@@
bestand
bs@@
butt@@
chain
definieren
department
dies@@
disaster
dutz@@
entertain@@
fantastisch
forced
glam@@
heavy
inner@@
key@@
kit@@
kts
langwei@@
launched
leiden@@
life@@
messer
mittleren
nötig
od
optimis@@
perman@@
persönlich
persönlichen
rapi@@
rin@@
saturn
schaden
schlimmer
schuhe
solch
spectrum
stab@@
survi@@
terrori@@
therap@@
transplan@@
trinken
ville
wechsel
wild@@
windows
wired
witz
woo@@
zuschau@@
100,000
21@@
addition
ading
andre@@
announ@@
aspekt
atten
begri@@
beweise
bine
blatt
cambridge
celebra@@
democratic
die@@
dinosaurier
dliche
entschul@@
equipment
erscheint
expedi@@
feuer@@
fie
fän@@
genom
gross@@
grundsätzlich
gul@@
iden@@
intellectual
jack
killing
leader
lec@@
lock
losing
marki@@
married
migra@@
molecular
mountains
mung
nachbarn
nas@@
notwendig
nungs@@
oning
pft
poor@@
potenzi@@
programme
psycho@@
rates
resource
schmu@@
schrift@@
schwä@@
shoul@@
sprach@@
städ@@
tch
technical
tiker
tles
verfü@@
vergan@@
wra@@
wunder
aku@@
alp@@
amin@@
amo@@
bende
bestimm@@
bibliothe@@
cau@@
ckets
coal
consequences
coral
daily
digitalen
digkeit
dimensionen
erkennt
ersetzen
folgende
galaxie
galaxien
gerechtigkeit
gling
grandmother
helden
ille
initiative
ket
korruption
lebenser@@
massi@@
medizinische
movies
natürlichen
northern
organs
parado@@
patri@@
pleasure
practical
remote
richtungen
rio
scan
schmer@@
sende
springen
steine
stil
straßen@@
stur@@
taste
tili@@
toile@@
traditionellen
trials
unabhängig
verbrachte
verfahren
verg@@
well@@
wirtschaftliche
700
abilities
advanced
angesehen
aring
avoid
awful
bang
baute
bedeuten@@
bereichen
berühr@@
black@@
buchstab@@
conf@@
contact
cour@@
diert
enjo@@
entstanden
gesp@@
git@@
homes
ize
jo
kindheit
lee
lem
mexiko
mikrosk@@
restaurants
roughly
schrän@@
sexual
sight
smell
surprised
swa@@
südafri@@
teeth
veränder@@
zerstören
3,000
5.000
800
account
affected
alli@@
bemü@@
beschei@@
bevölker@@
chol@@
cially
condu@@
cultures
dens
deter@@
elektrizität
erlebt
euer
express
feststellen
florida
gles
grab@@
halbe
hängen
höre
importance
kilometers
konkur@@
krä@@
maga@@
makers
market@@
mund
occasi@@
pf
prime
proteins
reci@@
sad
schau
schiff
setting
simu@@
spielte
spu@@
stac@@
stech@@
substan@@
talent
tausenden
tedx@@
teuer
users
usi@@
v-@@
vable
wellen
zir@@
überzeu@@
accident
advan@@
afrikanischen
ale@@
anderth@@
angle
aufen
beantworten
beschäftigen
besuchen
cil
club
colli@@
contain@@
controlled
dealing
display
drück@@
erter
essential
gegend
gö@@
hilfs@@
hinsicht
hörten
infor@@
inspi@@
intuition
leistungs@@
lessons
lossen@@
lux@@
meaning@@
mittler@@
mo
müll
nin@@
pacific
pho@@
präsentation
präsi@@
radik@@
reaction
selling
soldiers
spen@@
studieren
tony
tzu@@
untersucht
vermitteln
viertel
westlichen
wine
wire
wissenschaften
zerstört
zit@@
zon@@
zuge@@
50@@
a.
acci@@
affec@@
alzheimer
anhand
basier@@
beein@@
beobachtet
beschlossen
dunkel@@
ermu@@
fab@@
flas@@
gan
gefallen
gemeinden
gleichheit
graphic
hadn
hero
hinten
honor
horse
ht@@
illness
inning
jähri@@
kaffee
klo@@
kro@@
langer
löcher
mern
mäßig
müsste
ologische
papi@@
possibilities
prove
ption
quasi
regular
relative
section
sey
skla@@
stood
streng@@
thoughts
unds
user
vas@@
wachst@@
weit@@
ärm@@
äs@@
analog@@
atmen
aufzubauen
australia
bby
biot@@
bronx
brücke
bä@@
cards
categ@@
charakter
dir@@
effectively
empty
erfindung
eur@@
evolution@@
finish
gebeten
geschü@@
gravity
hlte
hnung
ination
itali@@
jedenfalls
jes@@
jähr@@
kehrt
konfron@@
lehren
lektion
long-term
lässi@@
molekul@@
motivi@@
null
onal
pag@@
paraly@@
preg@@
productive
property
protection
radical
repar@@
researchers
ric
schme@@
sci@@
sets
teure
transport
underneath
ut
vergröß@@
verkehr@@
vorstellungen
wahn@@
welchem
wesentlich
whereas
winden
wähl@@
zeitung
zweck
é@@
abra@@
adult
afri@@
aming
antibio@@
arrived
aw@@
block@@
breath
chemikalien
cin
clock
cross
ct@@
dienst
differ@@
dots
dunkl@@
entdeckte
entworfen
eres
erforsch@@
existi@@
faktoren
freiwilli@@
gall@@
geändert
harv@@
initi@@
intern@@
kapu@@
kerl
komplex
konflikt
ktes
lasse
maps
mathematical
metal
minim@@
nervous
online-@@
orders
pfle@@
platform
pleas@@
primi@@
rote
round
schließ@@
seln
silicon
solved
specifically
ssi@@
statistiken
stics
strom@@
suggest
tanz@@
thin@@
tigte
täu@@
ush
verlust
werken
who@@
wirklichen
ziel@@
zivilisation
any@@
atory
bakteri@@
barri@@
bedürfnisse
berichten
beweisen
biert
calling
ce-@@
civili@@
curious
demand
enzy@@
erwähnt
folie
geor@@
gesundheitswesen
gramm
junger
kreieren
lediglich
lustig
magnetic
magni@@
menschlicher
mitglieder
nigeri@@
nutzung
oral
orbit
picked
plans
presse
repu@@
requi@@
revolution@@
run@@
saal
sation
saved
selten
sharks
sophisti@@
spoke
sser
stant
steven
stärke
sugar
tot
variety
verab@@
verkehr
von@@
wings
woll@@
zte
zusätz@@
ökon@@
bein
bekannte
blieb
conduc@@
connections
considered
craft
dam
definitely
diet
dile@@
entsch@@
erlaub@@
erstellt
existence
expan@@
experienced
fahrt
fail
fewer
franzö@@
gelen@@
gely
genie@@
hafte
kev@@
mad
mali@@
medikament
momente
nern
retro@@
scene
singen
skulp@@
sources
stellungen
stärker
suggest@@
suggests
teilneh@@
thei@@
tober
tsun@@
valuable
viert
wahrschein@@
zz
achse
architect
aufbau
beinahe
beispielsweise
bene@@
blauen
buying
characters
crash
dameri@@
director
distin@@
doll@@
dunkle
effektiv
elimin@@
entwicklungsländern
evolutionary
explosion
fabrik
folks
fresh
furcht@@
gat@@
gemäl@@
gewe@@
goals
gps
grünen
hallu@@
hiv-@@
ight
innere
invention
kapital
kühl@@
medien@@
metho@@
method
migr@@
nahe@@
notes
operate
palä@@
players
radiation
relation
relatively
ri
schlafen
schwierigkeiten
sett@@
ships
silk
simulation
sonder@@
sprü@@
target
techniques
teles@@
toten
unglaublichen
unterrichten
verbessert
verdam@@
verknü@@
verteilt
wirkliche
zugänglich
13@@
abhängi@@
aded
agenda
aries
att@@
authenti@@
axis
blan@@
cab@@
centers
computing
convince
credit
diagramm
dimension
dogs
eco@@
efficiency
einrichtungen
employees
erkannt
gefällt
geschlagen
gesellschaft@@
herren
homo
ib@@
increasing
inf@@
inhalt
internationalen
kas
kitchen
komple@@
lifetime
llig
mama
mammo@@
meer@@
mented
mitarbeiter
molekül
müssten
newspaper
nik
ologischen
opp@@
pause
perception
photographs
plays
rene@@
require
ressed
rest@@
sin
smith
solange
sop@@
stable
stry
ter-@@
typically
zielen
übrig
anteil
ardo
arly
asse
atoms
aufregend
awareness
bai
brian
büchern
caf@@
chtern
defined
deln
diskussion
durchschnittliche
eff@@
epidemic
explains
fail@@
falten
filter
flat
gap
geburt@@
genü@@
geregt
gesichter
gla@@
gold@@
gore
grosse
haw@@
hie@@
identify
igkeiten
ilfe
insbesondere
kampagne
katastrop@@
kochen
laboratory
liefer@@
mails
maßstab
mie@@
mode
nützlich
ore@@
pants
prepared
ritu@@
sages
schluss@@
schwarzen
scrat@@
seltsam
serve
sides
situationen
stop@@
swim
tale
teenager
testing
tü@@
webseite
willst
wärmung
ält
28
adverti@@
aled
alterna@@
altet
applied
artige
autor
breaking
clas@@
clever
curi@@
decken
den-@@
deutsch@@
dna-@@
earth@@
ecu@@
eindeu@@
einiges
erken@@
factor
fair@@
fishing
former
grüne
heißen
implan@@
jim
koll@@
kompliziert
kran@@
kungen
lay
liked
linge
lokalen
marriage
mutter@@
nicht@@
nor
osity
pad
para@@
peak
phr@@
piano
previous
prinzipien
regul@@
represents
rett@@
reward
riesen@@
safety
schick@@
schöpf@@
sees
sentence
serie
sour@@
stif@@
tasche
text@@
tlichen
u.n.
unfall
vorbei@@
vorge@@
vorne
waff@@
wick@@
wüste
äußerst
1960
21.
ander
arbeitsp@@
artic@@
ausmaß
battery
beweis
beziehen
bizar@@
boundar@@
brach
confidence
eastern
ecosystem
empfin@@
engagement
entstand
erwachsenen
facing
freundin
fusion
gegründet
gelebt
geschma@@
gesund
gewohn@@
glü@@
grau@@
großmutter
hallo
heim
henry
häusern
inieren
intri@@
konz@@
ladies
liefern
matri@@
minister@@
moralische
nachts
naturally
nie@@
ost@@
pack
personally
primary
quant@@
rect
reti@@
risiken
roads
satis@@
schaue
schnei@@
sent@@
sequ@@
spiegel@@
spin@@
strahlung
style
tables
telefon@@
tert
theme
tnisse
unts
var@@
verpflich@@
verring@@
versteht
verwandelt
villa@@
vog@@
vul@@
vulnerable
wettbewerb
writer
zitat
überqu@@
120
193@@
24@@
accept
anpas@@
arr@@
australien
außen
beinhaltet
breite
bud@@
burn
cational
chemie
deeper
digitale
environments
exchange
febru@@
frame
gegenwart
geräusche
gest
gment
govern@@
holfen
hurt
ier
inje@@
introduced
ipo@@
ished
jewei@@
joe
ks@@
liquid
m-@@
males
may@@
mechanis@@
metapher
national@@
ord
oxyto@@
planes
pop
properties
psychiat@@
rennen
resili@@
rier
risks
sektor
sinni@@
stimmung
stärken
tw@@
verblüff@@
verbrei@@
verse
verti@@
visible
weiße
whit@@
zahn@@
é
85
allgemeinen
ames
anal@@
anlage
appropriate
astron@@
battle
behaviors
beschloss
bogen
capture
convinced
ctor
driver
ee@@
enorme
erkenn@@
erwachsene
ewi@@
faszin@@
favor@@
films
garage
geber
gering@@
glamour
gravi@@
handlungen
heran@@
herstellung
hnte
ims
intellektu@@
interpretation
laptops
leon@@
location
mem@@
mention
mich@@
natür@@
nive@@
orange
planet@@
poetry
processes
sach@@
sandwi@@
schimpansen
schizophren@@
schlägt
schreibt
selbe
senses
sitz
sowas
stehe
stimul@@
strand
strength
string
struggle
survey
switch
sätze
tains
taliban
tane@@
ternal
tivi@@
trillion
unlike
venti@@
venue
vertraut
wise
zusammenzu@@
aden
afrikas
akzeptieren
analyse
anstelle
attle
ausgeben
ay@@
banglades@@
bemerken
bob
brand@@
broo@@
bucks
buil@@
carrying
click
collapse
cooking
darstellen
diszi@@
echtz@@
emissions
enheit
exploration
frame@@
geheimnis
generally
germany
hierher
hits
kirche
kombination
korre@@
kriege
licherweise
liefert
lincol@@
miner@@
mira@@
mistake
nose
of-@@
open@@
politicians
präsentieren
queen
raising
rare
reiche
replace
requires
resultat
roh@@
rollen
roof
sending
soft@@
songs
southern
spiritu@@
stin@@
stupid
sty@@
tour@@
trage@@
tries
uten
vagina
versu@@
volk
vorzustellen
wieviel
wofür
wondering
za
zeigten
üben
bestand@@
bezüglich
bottle
bow@@
bubble
chimpanze@@
comfort
components
crowd
dinosau@@
einfaches
ek@@
ength
ertes
faith
farmer
fassung
fehlen
felder
gemeinsame
goods
grid
großartigen
hre
illegal
internationale
kanada
katastrophe
king@@
laugh@@
leiter
licen@@
lige
neh@@
nähr@@
ous@@
pazi@@
penguins
physiker
pilot
pir@@
pool
psychology
rad@@
received
schalt@@
schritt@@
selbstverständlich
sensitive
sequenz
setzten
shark
solcher
solving
staf@@
strated
the-@@
u.k.
unglaub@@
untersuchung
unusual
versagen
verteilung
veränderte
voraus
völ@@
watched
willen
überlegen
29
ancestors
angiogen@@
anwendung
arri@@
ax@@
bag
ballo@@
baseball
belast@@
bene
bestä@@
birthday
broke
burning
carefully
cast
chtete
consumer
damen
derer
diesel@@
ebenen
entfernen
exam@@
five-@@
füllen
fün@@
gebieten
geschäf@@
gün@@
hol
ids
imple@@
inevi@@
inseln
integr@@
intro@@
kriegs@@
landen
liebte
llan@@
meetings
menschliches
milk
multi-@@
musical
need@@
noon
pau@@
pay@@
pfund
pollution
probieren
pulled
pä@@
rb
remin@@
ride
runs
sav@@
se-@@
soci@@
spun@@
stammzellen
sustain@@
tax@@
telef@@
thin
unit
unterhaltung
verbrechen
versi@@
vorhanden
vorhersagen
water@@
watt
zep@@
zität
zusammenge@@
änge
1.000
absicht
agt
aktivitäten
asing
aturen
ausstellung
bedenken
bewus@@
burgh
chungen
clay
co-@@
collaboration
contin@@
copy@@
court
destruction
dia
discussion
entrop@@
exercise
förmi@@
ga
gemeinschaften
geographic
gerei@@
gover@@
grain
grundlage
healthcare
heirat@@
homo@@
hospitals
ingre@@
input
invasi@@
komment@@
labor@@
lan
legte
lifest@@
lächeln
manage
manufacturing
meist
member
mirror
mitta@@
momentan
novel
percentage
proben
roo@@
schönes
shang@@
simpl@@
so-@@
speziellen
stere@@
temporary
tig@@
tracking
trennt
tu
un
unterstützt
verage
vermeiden
versor@@
wher@@
wovon
zwischen@@
zza
2011
annahme
apri@@
arab
bart
behavi@@
brazil
chteten
common@@
counter
cutting
darunter
empathy
erweitern
ethi@@
ffer
finger@@
gigan@@
golden
grafik
halb@@
hollywood
holz@@
hous@@
här@@
interests
jahrzehnt
langfri@@
macher
mistakes
mlich
moment@@
mush@@
neuron
oles@@
phän@@
predat@@
psychop@@
remem@@
resear@@
restri@@
ridi@@
schnitt@@
schrecklich
schwa@@
six@@
sms
stol@@
stück@@
sungen
treat@@
umfeld
umines@@
usch
verbreitung
verwir@@
veter@@
w.
weis
wheel@@
xide
you@@
übernehmen
austr@@
comple@@
genu@@
kore@@
mana@@
schauten
schriften
schwarz@@
situations
sprecher
still@@
story@@
sue
susta@@
taucht
tious
ual
urban@@
verne@@
weih@@
arily
atur@@
begei@@
beobach@@
caus@@
deci@@
dered
gent
phenomen@@
richt@@
seits
tats@@
thr@@
tribu@@
uss@@
ye
amerikan@@
ktoren
risi@@
signi@@
trum
verantwor@@
bec@@
chst
danken
tual
zent@@
alt@@
entwick@@
q
ress
revol@@
sst
thou@@
zivili@@
zufä@@
assen
competi@@
confli@@
fascin@@
haup@@
intelli@@
jahrhunder@@
kill@@
tube
vil@@
allen@@
ener@@
gendes
mary
simil@@
stamm@@
unger
unterschei@@
ada@@
gesund@@
increas@@
kümm@@
mmt
stati@@
tra
vehi@@
verstän@@
w-@@
wart
zel@@
abor@@
b.
benu@@
denten
foc@@
lossen
mam@@
mou@@
popul@@
taus@@
use@@
zusä@@
duced
gil@@
less@@
success@@
tech@@
zwe@@
certain@@
curr@@
discus@@
fang
gangen
gefäng@@
iting
soft
sons
transforma@@
urspr@@
vermei@@
add@@
afgh@@
aster
beding@@
beha@@
diff@@
elec@@
flei@@
grü@@
mir@@
spru@@
spür@@
strug@@
troffen
bacteri@@
bewusst@@
compon@@
entrepr@@
grafi@@
konta@@
nachzu@@
phot@@
schre@@
scop@@
stern@@
sud@@
dür@@
hood
interessi@@
neur@@
partment
präsen@@
hall@@
inde@@
mean@@
nö@@
schir@@
turen
öffent@@
bür@@
das@@
espe@@
hlen@@
maß
requ@@
year-@@
absol@@
citi@@
fic@@
glau@@
justi@@
kation
manufac@@
theor@@
bieren
crea@@
dacht
dama@@
eil
great@@
hus@@
samkeit
turing
umin@@
verfüg@@
vy
alo@@
mitt@@
prepar@@
surpris@@
amei@@
benö@@
commun@@
fam@@
metaph@@
mexi@@
partic@@
unterstü@@
archite@@
bak@@
ind
masch@@
py@@
rän@@
schlüs@@
seri@@
strat@@
vulner@@
distri@@
dol@@
erwachsen@@
follo@@
medikam@@
profess@@
usual
collap@@
commer@@
mmer
nien
proper@@
ve-@@
vered
what@@
zations
zö@@
überra@@
aly@@
gehir@@
indepen@@
interest@@
rem
spee@@
tude
ually
viol@@
agri@@
aufmerk@@
eping
gebur@@
herauszu@@
krat@@
quot@@
ston
…
+
coll@@
ernähr@@
hm@@
häufi@@
pan
schön@@
sth@@
á@@
abhän@@
ama
ameri@@
aper
asse@@
disc@@
foun@@
gery
long-@@
mäd@@
oms
wettbewer@@
zusam@@
abo@@
architek@@
dere
eth
fic
gelö@@
ira@@
kir@@
manu@@
nia
pie@@
stan
stly
tely
brilli@@
deep@@
dow@@
muse@@
oud
perspe@@
relev@@
stors
vels
zens
dings
genan@@
gir@@
grupp@@
jä@@
nahr@@
näch@@
phen@@
weal@@
blich
einfa@@
keiten
lieder
mous
sugge@@
tery
trou@@
verhäl@@
wesent@@
zau@@
bub@@
fortunately
fs@@
imp@@
listen@@
rely
spie@@
tempor@@
wirkungen
alia
ance@@
ause
expen@@
geg@@
ghter
ision
lap@@
möglich@@
ond
ttle
alls
astrop@@
bili@@
class@@
collea@@
dnis
num@@
questi@@
soll@@
unterschied@@
zahlt
democra@@
enced
hing@@
ires
kräf@@
moun@@
nee@@
richti@@
stim@@
tsam
umgeb@@
confi@@
consci@@
danger@@
dation
fot@@
goog@@
ire
let@@
mor
präsent@@
evi@@
infra@@
kind@@
mathema@@
pon
rs
with@@
event@@
halten@@
konzent@@
libr@@
mption
ony@@
sauer@@
vag@@
ban
boun@@
cise
com
erfahr@@
gle
immedi@@
ings@@
kilome@@
mote
neighbor@@
schirm
beh@@
condi@@
decisi@@
eben@@
einflus@@
engine@@
grundsä@@
hori@@
ices
molekü@@
poe@@
recy@@
transp@@
verursa@@
world@@
bile
choo@@
diskus@@
ergeb@@
expe@@
ghtly
kör@@
medic@@
pollu@@
vil
ap
bang@@
cei@@
diffic@@
kürz@@
paki@@
tex
traff@@
zwi@@
eness
exist@@
geräu@@
ital
liebl@@
pid
ross
rul@@
sug@@
‹
›
atmosp@@
einfl@@
eing
fiel@@
jenigen
keit
ollywood
won@@
asy
bron@@
experi@@
iness
inging
internation@@
kehr
konfer@@
pedia
rying
satur@@
strahl@@
..
ada
know@@
mers
midd@@
pengu@@
psy@@
signific@@
zept
carb@@
clear@@
erkan@@
ersta@@
fundam@@
iety
teach@@
tötet
vel
vent
busin@@
cess@@
chur@@
doc@@
k.
protot@@
valent
valu@@
zusagen
beten
cum@@
inier@@
oly@@
photogra@@
seem@@
strateg@@
tty
utes
verbin@@
vereinig@@
wirt@@
übri@@
chtigkeit
concern@@
gründet
ktu@@
peop@@
phic
read@@
strate@@
vey
zar@@
zy
abili@@
campaig@@
environ@@
face@@
landscap@@
oze@@
prac@@
rais@@
stab
wett@@
zugän@@
avo@@
eri@@
eting
extrem@@
knowle@@
machin@@
stud@@
verhalten@@
wiki@@
°
big@@
cient
dnung
fashi@@
gala@@
män@@
previ@@
soldi@@
spea@@
wahrneh@@
earli@@
ih@@
remark@@
rieb
symp@@
there@@
bibli@@
cogni@@
gä@@
inven@@
omen@@
prise
verständlich
vide@@
vorhan@@
öhn@@
absolu@@
dit
geneh@@
oce@@
ques
selves
soc@@
tioned
)
auton@@
cess
cris@@
sup@@
agieren
anno@@
beauti@@
equi@@
forschen
kunde
lik@@
pers@@
tali@@
britan@@
dden
ficial
mber
milliar@@
ring@@
sands
storben
vili@@
ange
ermög@@
genheit
geschwindi@@
gues
hri@@
pathy
princi@@
deb@@
famili@@
figh@@
osau@@
publik@@
rät@@
sequences
terr@@
yel@@
adul@@
aum
beeinflus@@
häus@@
intelle@@
interess@@
iti
quick@@
rd
scap@@
scienti@@
anthro@@
appropri@@
att
call@@
convin@@
exer@@
mittl@@
performan@@
plö@@
responsi@@
stert
teili@@
vid
xic@@
=
beispiel@@
grow@@
karri@@
kle
mög@@
½
dab@@
fft
fically
gespro@@
hindern
itely
schimpan@@
tish
actu@@
anim@@
base@@
ehen
euro@@
hmen@@
issu@@
kay
malari@@
pian@@
suc@@
them@@
unity
volun@@
ó@@
ctly
effici@@
gebra@@
hospit@@
oxy@@
perfor@@
through@@
zeitig
²
bilities
diab@@
easi@@
electri@@
engl@@
erweise
gebie@@
herausforder@@
kalifor@@
olly@@
sear@@
@
brazi@@
chers
child@@
dee@@
him@@
hren@@
hundre@@
milit@@
notic@@
ousness
passion@@
tops
trilli@@
ultima@@
zine
americ@@
aufgab@@
erzä@@
gement
inte@@
marke@@
mathe@@
meth@@
onnen
other@@
pagne
psychi@@
resour@@
verän@@
è@@
í@@
bevölk@@
energ@@
kratie
nst
ould
phar@@
simp@@
verblü@@
verbra@@
wech@@
affe@@
angi@@
capac@@
entde@@
isla@@
shou@@
‟
accor@@
alg@@
geschie@@
großbritan@@
maj@@
restau@@
situ@@
stero@@
bedingt
bezieh@@
chro@@
deca@@
effec@@
eicht
fasz@@
feed@@
grou@@
jem@@
jour@@
marri@@
presi@@
ressour@@
schied
schieden
ske@@
tality
til
tol@@
awar@@
cals
entfer@@
flori@@
funden
intellec@@
lieb
ogen@@
ough@@
prinzipi@@
socie@@
tremend@@
wichtig@@
#
benef@@
employe@@
geschw@@
gesell@@
haupt
kalien
rant
safe@@
wus@@
xt
ächlich
‚
avail@@
beinhal@@
elektri@@
ests
europe@@
haupts@@
mista@@
patter@@
straß@@
vail@@
(
.b.
abli@@
dafri@@
fert
rhy@@
ruption
ult
zeital@@
bess@@
foreig@@
för@@
künf@@
n.
nerv@@
schizop@@
agen
birth@@
complic@@
etz
natu@@
professi@@
solu@@
tea@@
wies@@
β@@
comfort@@
dn
efully
fren@@
geria
ihr@@
ith
leist@@
mole@@
seit@@
sophi@@
ñ@@
‒
cule
diag@@
gni@@
instit@@
intu@@
job@@
posite
sep@@
ungefä@@
where@@
your@@
à
afghani@@
astern
bestim@@
famil@@
gem@@
onlin@@
ote
pflich@@
^
autom@@
dimen@@
erwei@@
europ@@
fahr
häre
invisi@@
mosp@@
pover@@
relation@@
rough@@
weapon@@
ü
beau@@
det@@
exac@@
fäng@@
letzten@@
norm@@
paci@@
stom@@
thom@@
auß@@
bedür@@
curity
quas@@
rami@@
reme@@
unser@@
versums
chir@@
cisco
destru@@
dise@@
emo@@
galaxi@@
gegent@@
geschaff@@
manhat@@
mexic@@
movi@@
telev@@
ã@@
ç@@
chic@@
falt
gyp@@
minde@@
müs@@
na-@@
ttel
two@@
_
aga@@
alzhei@@
califor@@
cept
compan@@
entre@@
ernsth@@
micha@@
stead
zumin@@
züglich
ê@@
í
buchstä@@
expon@@
galax@@
health@@
irgen@@
lebe@@
onder@@
osop@@
percent@@
pment
prinzi@@
raid
slow@@
vices
zeugt

*
amera
ement@@
feel@@
kog@@
mend@@
tice
trotz@@
ully
viron@@
ween
zop@@
äume
ó
degre@@
econ@@
elek@@
etes
garti@@
industr@@
inst
intel@@
langu@@
opport@@
silic@@
ution@@
viell@@


¥
â@@
ø@@
`
beson@@
chmal
disci@@
ernt
flä@@
fore
gespi@@
othe@@
pite
vertr@@
zhei@@

­
ö
ú@@
ück
ā@@
อ@@
began@@
complex@@
eler@@
every@@
goti@@
happen@@
incredi@@
kens@@
liqu@@
orith@@
possi@@
smit@@
toge@@
verbess@@
washing@@
yester@@


£
³
¼
×
â
ä
ô@@
œ@@
β
\
`@@
beina@@
bekan@@
bey@@
bras@@
casi@@
dership
erlau@@
hosp@@
hund@@
indivi@@
meet@@
richt
©
å@@
è
ë@@
ï@@
ร
่
€
你@@
葱
送@@
charac@@
childr@@
denly
devel@@
effi@@
esn
ffee
import@@
irgendet@@
jeden@@
niem@@
obvi@@
paig@@
perha@@
rants
unities
windo@@
®
¾
à@@
á
ë
î@@
ý@@
ă@@
ć
ē
ō@@
š@@
ť
к@@
ӓ@@
ย
ย@@
﻿
，
madeupword0000
madeupword0001
madeupword0002
madeupword0003
